515a540054585431000001008000000000000000000000009600000000000000190300000000000035040000000000004ee714194859fa73862c79c299c7c9a00000000000000000000000000000000000000000000000000000000000000000000000000000000000000000000000000000000000000000000000000000000028b52ffd00586900007a65726f0a6f6e650a74776f0aab66666f726d617463717a7466736368656d616f717a742e6d657461646174612e763166736f75726365a668656e636f64696e67657574662d386a6c696e655f636f756e74036a6d656469615f7479706564746578746c6e65776c696e655f6d6f6465626c666d6f726967696e616c5f73697a650d716f726967696e616c5f636865636b73756da26576616c756558204ee714194859fa73862c79c299c7c9a08808dd677d3cdcef7f20015991adb37e69616c676f726974686d66626c616b653367696e6465786573a76b6368756e6b5f7461626c65f56b6e6772616d5f696e646578f46b746f6b656e5f696e646578f46c766563746f725f696e646578f46e646f63756d656e745f696e646578f47064656e73655f6c696e655f696e646578f5717370617273655f6c696e655f696e646578f5686368756e6b696e67a468626f756e646172796e6c696e652d7072656665727265646e6d61785f6368756e6b5f73697a651a01000000717461726765745f6368756e6b5f73697a651a0040000076757466385f626f756e646172795f7265717569726564f5686964656e74697479a4646e616d65f66770726f66696c6564636f72656a637265617465645f627963717a7472637265617465645f61745f756e69785f6d73f669696e74656772697479a36e696e6465785f636865636b73756d66626c616b65337819636f6d707265737365645f6368756e6b5f636865636b73756d66626c616b6533781b756e636f6d707265737365645f6368756e6b5f636865636b73756d66626c616b65336b636f6d7072657373696f6ea565636f646563647a7374646a7a7374645f6c6576656c006f64696374696f6e6172795f6d6f6465646e6f6e6572696e646570656e64656e745f6672616d6573f5737a7374645f6672616d655f636865636b73756df46c636f6e7461696e65725f6964504ee714194859fa73862c79c299c7c9a06d636f6d7061746962696c697479a271717a745f69735f7a73745f73747265616df478226368756e6b735f6172655f696e646570656e64656e745f7a7374645f6672616d6573f56e666f726d61745f76657273696f6e82000101000300050400000000000000008000000000000000160000000000000000000000000000000d0000000000000000000000000000000300000000000000000000000000000098ee35590cd4ed87e219bf3800e8dcb4665202478821253403558d88d3b634ce4ee714194859fa73862c79c299c7c9a08808dd677d3cdcef7f20015991adb37ea566626c6f636b7382a76473697a65188064747970656b6368756e6b5f7461626c6565636f64656371717a742d6374626c2d66697865642d763165666c61677300666f66667365741903b568636865636b73756da26576616c756558206b3dfdcf972b511703f0873f2db5950c398a63b6ed938f36eb8002d7888b7b7869616c676f726974686d66626c616b6533687265717569726564f5a76473697a650664747970657064656e73655f6c696e655f696e64657865636f6465637818717a742d6c696e652d64656c74612d766172696e742d763165666c61677300666f66667365741903af68636865636b73756da26576616c756558208d70162f6e88a993f2b046a97864c62e6de65b55f5dfce797788d18b62f6b5eb69616c676f726974686d66626c616b6533687265717569726564f466736368656d6171717a742e696e6465782d726f6f742e763167636f6e74656e74a46a6c696e655f636f756e74036b6368756e6b5f636f756e74016d6f726967696e616c5f73697a650d716f726967696e616c5f636865636b73756da26576616c756558204ee714194859fa73862c79c299c7c9a08808dd677d3cdcef7f20015991adb37e69616c676f726974686d66626c616b65336c636f6e7461696e65725f6964504ee714194859fa73862c79c299c7c9a06e666f726d61745f76657273696f6e820001a866736368656d616d717a742e666f6f7465722e7631686d65746164617461a36473697a65190319666f6666736574189668636865636b73756da26576616c756558200d7d28a2e2d151faed05c8c12c910d4bc1b903d3c97a5922f03ee629b99535ff69616c676f726974686d66626c616b65336a696e6465785f726f6f74a36473697a651901f9666f666673657419043568636865636b73756da26576616c756558205130ebcc2a1ba04f2b402ad2aa487101329bddd40be4af1bff9d3e4f61daa7a169616c676f726974686d66626c616b65336c636f6e7461696e65725f6964504ee714194859fa73862c79c299c7c9a06c666f6f7465725f666c616773006e666f726d61745f76657273696f6e8200016f66696e616c5f66696c655f73697a651907e172636f6e7461696e65725f636865636b73756da26576616c75655820c80235a3b717aa95e24334951f6cfbaff700a29420d0715debeb4f7617f8958069616c676f726974686d66626c616b6533515a545441494c3100000100400000002e060000000000007301000000000000d38a9f8966887d5f1bea7a06e78245a2cfdacbc1e006769592fcbb41a5e45378
